const unsigned char model[] = {
  0x1c, 0x00, 0x00, 0x00, 0x54, 0x46, 0x4c, 0x33, 0x14, 0x00, 0x20, 0x00,
  0x04, 0x00, 0x08, 0x00, 0x0c, 0x00, 0x10, 0x00, 0x14, 0x00, 0x00, 0x00,
  0x18, 0x00, 0x1c, 0x00, 0x14, 0x00, 0x00, 0x00, 0x03, 0x00, 0x00, 0x00,
  0x18, 0x00, 0x00, 0x00, 0x20, 0x00, 0x00, 0x00, 0x30, 0x01, 0x00, 0x00,
  0x20, 0x00, 0x00, 0x00, 0xd8, 0x00, 0x00, 0x00, 0x50, 0x00, 0x00, 0x00,
  0x02, 0x00, 0x00, 0x00, 0x24, 0x04, 0x00, 0x00, 0xf0, 0x01, 0x00, 0x00,
  0x01, 0x00, 0x00, 0x00, 0x34, 0x01, 0x00, 0x00, 0x0d, 0x00, 0x00, 0x00,
  0xe0, 0x1b, 0x00, 0x00, 0xdc, 0x1b, 0x00, 0x00, 0x10, 0x1b, 0x00, 0x00,
  0x98, 0x1a, 0x00, 0x00, 0x2c, 0x1a, 0x00, 0x00, 0x18, 0x07, 0x00, 0x00,
  0x34, 0x05, 0x00, 0x00, 0x90, 0x04, 0x00, 0x00, 0xc0, 0x1b, 0x00, 0x00,
  0xbc, 0x1b, 0x00, 0x00, 0xb8, 0x1b, 0x00, 0x00, 0xb4, 0x1b, 0x00, 0x00,
  0xbc, 0x00, 0x00, 0x00, 0x01, 0x00, 0x00, 0x00, 0x10, 0x00, 0x00, 0x00,
  0x00, 0x00, 0x0a, 0x00, 0x10, 0x00, 0x0c, 0x00, 0x08, 0x00, 0x04, 0x00,
  0x0a, 0x00, 0x00, 0x00, 0x0c, 0x00, 0x00, 0x00, 0x1c, 0x00, 0x00, 0x00,
  0x20, 0x00, 0x00, 0x00, 0x0f, 0x00, 0x00, 0x00, 0x73, 0x65, 0x72, 0x76,
  0x69, 0x6e, 0x67, 0x5f, 0x64, 0x65, 0x66, 0x61, 0x75, 0x6c, 0x74, 0x00,
  0x01, 0x00, 0x00, 0x00, 0x14, 0x00, 0x00, 0x00, 0x01, 0x00, 0x00, 0x00,
  0x24, 0x00, 0x00, 0x00, 0x08, 0x00, 0x0c, 0x00, 0x08, 0x00, 0x04, 0x00,
  0x08, 0x00, 0x00, 0x00, 0x0a, 0x00, 0x00, 0x00, 0x04, 0x00, 0x00, 0x00,
  0x07, 0x00, 0x00, 0x00, 0x64, 0x65, 0x6e, 0x73, 0x65, 0x5f, 0x35, 0x00,
  0x8a, 0xe5, 0xff, 0xff, 0x04, 0x00, 0x00, 0x00, 0x0d, 0x00, 0x00, 0x00,
  0x64, 0x65, 0x6e, 0x73, 0x65, 0x5f, 0x33, 0x5f, 0x69, 0x6e, 0x70, 0x75,
  0x74, 0x00, 0x00, 0x00, 0x01, 0x00, 0x00, 0x00, 0x0c, 0x00, 0x00, 0x00,
  0x08, 0x00, 0x0c, 0x00, 0x04, 0x00, 0x08, 0x00, 0x08, 0x00, 0x00, 0x00,
  0x08, 0x00, 0x00, 0x00, 0x0c, 0x00, 0x00, 0x00, 0x13, 0x00, 0x00, 0x00,
  0x6d, 0x69, 0x6e, 0x5f, 0x72, 0x75, 0x6e, 0x74, 0x69, 0x6d, 0x65, 0x5f,
  0x76, 0x65, 0x72, 0x73, 0x69, 0x6f, 0x6e, 0x00, 0xda, 0xe5, 0xff, 0xff,
  0x04, 0x00, 0x00, 0x00, 0x10, 0x00, 0x00, 0x00, 0x31, 0x2e, 0x35, 0x2e,
  0x30, 0x00, 0x00, 0x00, 0x00, 0x00, 0x00, 0x00, 0x00, 0x00, 0x00, 0x00,
  0x0f, 0x00, 0x00, 0x00, 0x4d, 0x4c, 0x49, 0x52, 0x20, 0x43, 0x6f, 0x6e,
  0x76, 0x65, 0x72, 0x74, 0x65, 0x64, 0x2e, 0x00, 0x00, 0x00, 0x0e, 0x00,
  0x18, 0x00, 0x04, 0x00, 0x08, 0x00, 0x0c, 0x00, 0x10, 0x00, 0x14, 0x00,
  0x0e, 0x00, 0x00, 0x00, 0x14, 0x00, 0x00, 0x00, 0x40, 0x00, 0x00, 0x00,
  0x44, 0x00, 0x00, 0x00, 0x48, 0x00, 0x00, 0x00, 0x58, 0x00, 0x00, 0x00,
  0x0b, 0x00, 0x00, 0x00, 0x3c, 0x1a, 0x00, 0x00, 0xf0, 0x19, 0x00, 0x00,
  0x88, 0x19, 0x00, 0x00, 0x1c, 0x19, 0x00, 0x00, 0xa0, 0x18, 0x00, 0x00,
  0x8c, 0x05, 0x00, 0x00, 0xa8, 0x03, 0x00, 0x00, 0xbc, 0x02, 0x00, 0x00,
  0xc4, 0x01, 0x00, 0x00, 0x08, 0x01, 0x00, 0x00, 0x80, 0x00, 0x00, 0x00,
  0x01, 0x00, 0x00, 0x00, 0x00, 0x00, 0x00, 0x00, 0x01, 0x00, 0x00, 0x00,
  0x0a, 0x00, 0x00, 0x00, 0x04, 0x00, 0x00, 0x00, 0x40, 0x02, 0x00, 0x00,
  0x6c, 0x01, 0x00, 0x00, 0xb4, 0x00, 0x00, 0x00, 0x1c, 0x00, 0x00, 0x00,
  0x04, 0x00, 0x00, 0x00, 0x6d, 0x61, 0x69, 0x6e, 0x00, 0x00, 0x0e, 0x00,
  0x18, 0x00, 0x08, 0x00, 0x0c, 0x00, 0x10, 0x00, 0x07, 0x00, 0x14, 0x00,
  0x0e, 0x00, 0x00, 0x00, 0x00, 0x00, 0x00, 0x09, 0x01, 0x00, 0x00, 0x00,
  0x1c, 0x00, 0x00, 0x00, 0x10, 0x00, 0x00, 0x00, 0x04, 0x00, 0x00, 0x00,
  0xb6, 0xe6, 0xff, 0xff, 0x00, 0x00, 0x80, 0x3f, 0x01, 0x00, 0x00, 0x00,
  0x0a, 0x00, 0x00, 0x00, 0x01, 0x00, 0x00, 0x00, 0x09, 0x00, 0x00, 0x00,
  0xdc, 0xfd, 0xff, 0xff, 0x19, 0x00, 0x00, 0x00, 0x00, 0x00, 0x00, 0x19,
  0x01, 0x00, 0x00, 0x00, 0x80, 0xe6, 0xff, 0xff, 0x14, 0x00, 0x00, 0x00,
  0x0b, 0x00, 0x00, 0x00, 0x18, 0x00, 0x00, 0x00, 0x40, 0x00, 0x00, 0x00,
  0x30, 0x00, 0x00, 0x00, 0x02, 0x00, 0x00, 0x00, 0x01, 0x00, 0x00, 0x00,
  0x02, 0x00, 0x00, 0x00, 0x19, 0x00, 0x00, 0x00, 0x53, 0x74, 0x61, 0x74,
  0x65, 0x66, 0x75, 0x6c, 0x50, 0x61, 0x72, 0x74, 0x69, 0x74, 0x69, 0x6f,
  0x6e, 0x65, 0x64, 0x43, 0x61, 0x6c, 0x6c, 0x3a, 0x30, 0x00, 0x00, 0x00,
  0x02, 0x00, 0x00, 0x00, 0xff, 0xff, 0xff, 0xff, 0x02, 0x00, 0x00, 0x00,
  0x64, 0xe6, 0xff, 0xff, 0x5a, 0xff, 0xff, 0xff, 0x00, 0x00, 0x00, 0x08,
  0x18, 0x00, 0x00, 0x00, 0x0c, 0x00, 0x00, 0x00, 0x04, 0x00, 0x00, 0x00,
  0x7c, 0xe6, 0xff, 0xff, 0x01, 0x00, 0x00, 0x00, 0x09, 0x00, 0x00, 0x00,
  0x03, 0x00, 0x00, 0x00, 0x08, 0x00, 0x00, 0x00, 0x06, 0x00, 0x00, 0x00,
  0x01, 0x00, 0x00, 0x00, 0x04, 0xe7, 0xff, 0xff, 0x14, 0x00, 0x00, 0x00,
  0x0a, 0x00, 0x00, 0x00, 0x18, 0x00, 0x00, 0x00, 0x60, 0x00, 0x00, 0x00,
  0x50, 0x00, 0x00, 0x00, 0x02, 0x00, 0x00, 0x00, 0x01, 0x00, 0x00, 0x00,
  0x02, 0x00, 0x00, 0x00, 0x38, 0x00, 0x00, 0x00, 0x73, 0x65, 0x71, 0x75,
  0x65, 0x6e, 0x74, 0x69, 0x61, 0x6c, 0x5f, 0x31, 0x2f, 0x64, 0x65, 0x6e,
  0x73, 0x65, 0x5f, 0x35, 0x2f, 0x4d, 0x61, 0x74, 0x4d, 0x75, 0x6c, 0x3b,
  0x73, 0x65, 0x71, 0x75, 0x65, 0x6e, 0x74, 0x69, 0x61, 0x6c, 0x5f, 0x31,
  0x2f, 0x64, 0x65, 0x6e, 0x73, 0x65, 0x5f, 0x35, 0x2f, 0x42, 0x69, 0x61,
  0x73, 0x41, 0x64, 0x64, 0x00, 0x00, 0x00, 0x00, 0x02, 0x00, 0x00, 0x00,
  0xff, 0xff, 0xff, 0xff, 0x02, 0x00, 0x00, 0x00, 0xdc, 0xe7, 0xff, 0xff,
  0x00, 0x00, 0x0e, 0x00, 0x14, 0x00, 0x00, 0x00, 0x08, 0x00, 0x0c, 0x00,
  0x07, 0x00, 0x10, 0x00, 0x0e, 0x00, 0x00, 0x00, 0x00, 0x00, 0x00, 0x08,
  0x1c, 0x00, 0x00, 0x00, 0x10, 0x00, 0x00, 0x00, 0x04, 0x00, 0x00, 0x00,
  0x2e, 0xff, 0xff, 0xff, 0x00, 0x00, 0x00, 0x01, 0x01, 0x00, 0x00, 0x00,
  0x08, 0x00, 0x00, 0x00, 0x03, 0x00, 0x00, 0x00, 0x07, 0x00, 0x00, 0x00,
  0x05, 0x00, 0x00, 0x00, 0x02, 0x00, 0x00, 0x00, 0xbc, 0xe7, 0xff, 0xff,
  0x14, 0x00, 0x00, 0x00, 0x09, 0x00, 0x00, 0x00, 0x18, 0x00, 0x00, 0x00,
  0x78, 0x00, 0x00, 0x00, 0x68, 0x00, 0x00, 0x00, 0x02, 0x00, 0x00, 0x00,
  0x01, 0x00, 0x00, 0x00, 0x0a, 0x00, 0x00, 0x00, 0x52, 0x00, 0x00, 0x00,
  0x73, 0x65, 0x71, 0x75, 0x65, 0x6e, 0x74, 0x69, 0x61, 0x6c, 0x5f, 0x31,
  0x2f, 0x64, 0x65, 0x6e, 0x73, 0x65, 0x5f, 0x34, 0x2f, 0x4d, 0x61, 0x74,
  0x4d, 0x75, 0x6c, 0x3b, 0x73, 0x65, 0x71, 0x75, 0x65, 0x6e, 0x74, 0x69,
  0x61, 0x6c, 0x5f, 0x31, 0x2f, 0x64, 0x65, 0x6e, 0x73, 0x65, 0x5f, 0x34,
  0x2f, 0x52, 0x65, 0x6c, 0x75, 0x3b, 0x73, 0x65, 0x71, 0x75, 0x65, 0x6e,
  0x74, 0x69, 0x61, 0x6c, 0x5f, 0x31, 0x2f, 0x64, 0x65, 0x6e, 0x73, 0x65,
  0x5f, 0x34, 0x2f, 0x42, 0x69, 0x61, 0x73, 0x41, 0x64, 0x64, 0x00, 0x00,
  0x02, 0x00, 0x00, 0x00, 0xff, 0xff, 0xff, 0xff, 0x0a, 0x00, 0x00, 0x00,
  0xac, 0xe8, 0xff, 0xff, 0x00, 0x00, 0x0e, 0x00, 0x16, 0x00, 0x00, 0x00,
  0x08, 0x00, 0x0c, 0x00, 0x07, 0x00, 0x10, 0x00, 0x0e, 0x00, 0x00, 0x00,
  0x00, 0x00, 0x00, 0x08, 0x24, 0x00, 0x00, 0x00, 0x18, 0x00, 0x00, 0x00,
  0x0c, 0x00, 0x00, 0x00, 0x00, 0x00, 0x06, 0x00, 0x08, 0x00, 0x07, 0x00,
  0x06, 0x00, 0x00, 0x00, 0x00, 0x00, 0x00, 0x01, 0x01, 0x00, 0x00, 0x00,
  0x07, 0x00, 0x00, 0x00, 0x03, 0x00, 0x00, 0x00, 0x00, 0x00, 0x00, 0x00,
  0x04, 0x00, 0x00, 0x00, 0x03, 0x00, 0x00, 0x00, 0x0c, 0x00, 0x10, 0x00,
  0x0b, 0x00, 0x00, 0x00, 0x0c, 0x00, 0x04, 0x00, 0x0c, 0x00, 0x00, 0x00,
  0x09, 0x00, 0x00, 0x00, 0x00, 0x00, 0x00, 0x09, 0x01, 0x00, 0x00, 0x00,
  0xb0, 0xe8, 0xff, 0xff, 0x14, 0x00, 0x00, 0x00, 0x08, 0x00, 0x00, 0x00,
  0x18, 0x00, 0x00, 0x00, 0x78, 0x00, 0x00, 0x00, 0x68, 0x00, 0x00, 0x00,
  0x02, 0x00, 0x00, 0x00, 0x01, 0x00, 0x00, 0x00, 0x0a, 0x00, 0x00, 0x00,
  0x52, 0x00, 0x00, 0x00, 0x73, 0x65, 0x71, 0x75, 0x65, 0x6e, 0x74, 0x69,
  0x61, 0x6c, 0x5f, 0x31, 0x2f, 0x64, 0x65, 0x6e, 0x73, 0x65, 0x5f, 0x33,
  0x2f, 0x4d, 0x61, 0x74, 0x4d, 0x75, 0x6c, 0x3b, 0x73, 0x65, 0x71, 0x75,
  0x65, 0x6e, 0x74, 0x69, 0x61, 0x6c, 0x5f, 0x31, 0x2f, 0x64, 0x65, 0x6e,
  0x73, 0x65, 0x5f, 0x33, 0x2f, 0x52, 0x65, 0x6c, 0x75, 0x3b, 0x73, 0x65,
  0x71, 0x75, 0x65, 0x6e, 0x74, 0x69, 0x61, 0x6c, 0x5f, 0x31, 0x2f, 0x64,
  0x65, 0x6e, 0x73, 0x65, 0x5f, 0x33, 0x2f, 0x42, 0x69, 0x61, 0x73, 0x41,
  0x64, 0x64, 0x00, 0x00, 0x02, 0x00, 0x00, 0x00, 0xff, 0xff, 0xff, 0xff,
  0x0a, 0x00, 0x00, 0x00, 0xcc, 0xe8, 0xff, 0xff, 0x9a, 0xe9, 0xff, 0xff,
  0x04, 0x00, 0x00, 0x00, 0x50, 0x00, 0x00, 0x00, 0x8f, 0x96, 0x58, 0x3e,
  0x9f, 0x0e, 0x75, 0xbc, 0xe9, 0x38, 0xb3, 0xbe, 0xa0, 0xfa, 0x78, 0xbe,
  0x26, 0x3c, 0xac, 0x3e, 0xa3, 0x36, 0xbf, 0x3e, 0x28, 0x37, 0xb8, 0xbe,
  0x50, 0x48, 0x07, 0x3e, 0x20, 0x83, 0x3a, 0x3f, 0xba, 0xb3, 0x43, 0x3f,
  0x75, 0x44, 0x8c, 0x3e, 0xdf, 0xe7, 0x3a, 0x3f, 0xd2, 0x7a, 0xea, 0xbe,
  0xe2, 0x37, 0xb1, 0xbe, 0xd0, 0x9d, 0x45, 0x3f, 0xb8, 0xad, 0x24, 0x3f,
  0x65, 0x4f, 0x1b, 0x3f, 0x68, 0x7f, 0x5b, 0xbe, 0x9f, 0x28, 0x0f, 0xbe,
  0xe5, 0x6c, 0xbf, 0xbe, 0xda, 0xe9, 0xff, 0xff, 0x10, 0x00, 0x00, 0x00,
  0x07, 0x00, 0x00, 0x00, 0x14, 0x00, 0x00, 0x00, 0x30, 0x00, 0x00, 0x00,
  0x02, 0x00, 0x00, 0x00, 0x02, 0x00, 0x00, 0x00, 0x0a, 0x00, 0x00, 0x00,
  0x1b, 0x00, 0x00, 0x00, 0x73, 0x65, 0x71, 0x75, 0x65, 0x6e, 0x74, 0x69,
  0x61, 0x6c, 0x5f, 0x31, 0x2f, 0x64, 0x65, 0x6e, 0x73, 0x65, 0x5f, 0x35,
  0x2f, 0x4d, 0x61, 0x74, 0x4d, 0x75, 0x6c, 0x00, 0x6c, 0xe9, 0xff, 0xff,
  0x3a, 0xea, 0xff, 0xff, 0x04, 0x00, 0x00, 0x00, 0x90, 0x01, 0x00, 0x00,
  0x2c, 0x4c, 0x31, 0xb9, 0xf0, 0x58, 0x94, 0x38, 0x84, 0x4b, 0xed, 0xb8,
  0xc4, 0xa3, 0xb9, 0xb8, 0x36, 0xb8, 0xb4, 0x38, 0x64, 0x3b, 0x17, 0x38,
  0x00, 0xd6, 0x4f, 0x38, 0x40, 0x33, 0xd9, 0x38, 0xf1, 0xe5, 0x43, 0xb9,
  0x62, 0x0f, 0xa1, 0xb9, 0x3a, 0x36, 0xd0, 0x3e, 0xf8, 0x9a, 0xf9, 0xb7,
  0xa0, 0xf2, 0xa2, 0x37, 0x30, 0xbe, 0x70, 0xb8, 0xa2, 0x63, 0x9e, 0xb8,
  0x48, 0x4f, 0x1c, 0x39, 0xeb, 0x4a, 0x19, 0xba, 0xae, 0x56, 0x0b, 0xb8,
  0xc8, 0xb6, 0x0e, 0xb8, 0xfa, 0xbf, 0xa8, 0xb9, 0x1a, 0xed, 0x01, 0xb8,
  0xaf, 0x58, 0x21, 0xb8, 0xab, 0x0f, 0x96, 0xb8, 0x16, 0x44, 0x9a, 0xb8,
  0x56, 0xb3, 0xa5, 0xb8, 0xe0, 0x23, 0xe6, 0x36, 0x74, 0xc6, 0x7e, 0xb7,
  0xa6, 0x80, 0xb3, 0x39, 0x48, 0x5a, 0x72, 0xb8, 0xea, 0x03, 0x12, 0x37,
  0x25, 0x82, 0x12, 0x39, 0x22, 0x60, 0x2d, 0xb9, 0x36, 0x4f, 0x7f, 0x38,
  0x4a, 0xb7, 0x70, 0xb8, 0x74, 0x41, 0x09, 0x39, 0x10, 0xf5, 0x52, 0x39,
  0x40, 0x82, 0x71, 0xb8, 0x96, 0xbd, 0xf6, 0x39, 0x40, 0x31, 0x76, 0xb6,
  0xf0, 0xa5, 0x20, 0xb9, 0xa1, 0x47, 0x00, 0x3f, 0xdc, 0x8d, 0x5d, 0x36,
  0xf8, 0x11, 0xbd, 0x38, 0xb2, 0x4e, 0x85, 0xb9, 0xdc, 0x45, 0x24, 0xb9,
  0xc6, 0x58, 0x0f, 0x39, 0x9b, 0xb7, 0x62, 0xb9, 0xa7, 0x56, 0x15, 0xb9,
  0x34, 0xf9, 0x37, 0xb8, 0x2a, 0x1c, 0xfa, 0xb8, 0x38, 0x3d, 0xd5, 0x38,
  0x00, 0xba, 0xc5, 0x35, 0xc2, 0x91, 0x18, 0x39, 0xbc, 0xdb, 0x0a, 0xb9,
  0xb3, 0x21, 0x79, 0xb8, 0x7e, 0x2f, 0x93, 0x39, 0x35, 0x35, 0xa7, 0x38,
  0xae, 0x71, 0xf5, 0x38, 0x72, 0xd7, 0x20, 0xb7, 0x28, 0x6a, 0x5f, 0xb8,
  0x29, 0x74, 0xc6, 0x3e, 0xd0, 0x13, 0x04, 0xb6, 0x4c, 0xa6, 0xaa, 0xb8,
  0x34, 0x15, 0xfa, 0xbd, 0xc2, 0xc2, 0x09, 0xb9, 0x39, 0x0c, 0xeb, 0x38,
  0x08, 0x46, 0x90, 0xb8, 0x08, 0xf4, 0x80, 0x38, 0xb8, 0xfc, 0x82, 0x37,
  0x0e, 0x24, 0x37, 0xb8, 0x39, 0x9d, 0x27, 0x39, 0x48, 0x28, 0xbd, 0x38,
  0xe8, 0x0c, 0x36, 0x38, 0x6f, 0xbf, 0x91, 0x38, 0xf7, 0x4d, 0x80, 0xb9,
  0xe0, 0xb4, 0x80, 0xb9, 0xcd, 0x32, 0x5f, 0x39, 0x42, 0xc1, 0x9a, 0x38,
  0x15, 0x8e, 0x25, 0x3a, 0x8f, 0xf3, 0xa0, 0xb8, 0xf8, 0x1c, 0xc6, 0xbd,
  0x64, 0xa0, 0x13, 0x38, 0x9c, 0x73, 0x40, 0x39, 0x24, 0x45, 0xdf, 0x3e,
  0xc0, 0xaa, 0x40, 0xb8, 0x88, 0x39, 0xf3, 0x38, 0xa9, 0xae, 0x4d, 0x3e,
  0xcf, 0x90, 0x7d, 0x39, 0xa3, 0x15, 0x3d, 0x3e, 0x0b, 0x1c, 0x97, 0xbd,
  0x31, 0x45, 0x28, 0xbe, 0x0b, 0x2a, 0xd7, 0x3e, 0xbc, 0xc1, 0xc1, 0x37,
  0x8d, 0xa7, 0x13, 0x39, 0x40, 0x42, 0xeb, 0x39, 0xc2, 0xa0, 0xa6, 0x38,
  0xde, 0xc8, 0x22, 0x3e, 0x6f, 0x9c, 0xba, 0xb8, 0x9f, 0x6d, 0x13, 0x3f,
  0x24, 0xd2, 0xb1, 0xbe, 0xba, 0xeb, 0xff, 0xff, 0x10, 0x00, 0x00, 0x00,
  0x06, 0x00, 0x00, 0x00, 0x14, 0x00, 0x00, 0x00, 0x30, 0x00, 0x00, 0x00,
  0x02, 0x00, 0x00, 0x00, 0x0a, 0x00, 0x00, 0x00, 0x0a, 0x00, 0x00, 0x00,
  0x1b, 0x00, 0x00, 0x00, 0x73, 0x65, 0x71, 0x75, 0x65, 0x6e, 0x74, 0x69,
  0x61, 0x6c, 0x5f, 0x31, 0x2f, 0x64, 0x65, 0x6e, 0x73, 0x65, 0x5f, 0x34,
  0x2f, 0x4d, 0x61, 0x74, 0x4d, 0x75, 0x6c, 0x00, 0x4c, 0xeb, 0xff, 0xff,
  0x1a, 0xec, 0xff, 0xff, 0x04, 0x00, 0x00, 0x00, 0xc0, 0x12, 0x00, 0x00,
  0xe3, 0x44, 0x48, 0x3e, 0x29, 0xf6, 0xe4, 0x3d, 0x99, 0x91, 0x08, 0xbd,
  0x28, 0x69, 0xbd, 0x3e, 0x29, 0xf6, 0x15, 0x3e, 0x17, 0xa6, 0xf0, 0xbd,
  0xd4, 0xa4, 0xb8, 0x3e, 0xe8, 0xc9, 0xe9, 0x3d, 0xaa, 0x79, 0xfe, 0xbc,
  0xb9, 0xda, 0x2d, 0x3e, 0x94, 0xd1, 0x8c, 0xbd, 0xa3, 0x49, 0x6d, 0xbd,
  0x04, 0xe1, 0x83, 0x3e, 0x1e, 0x3a, 0x8d, 0xbe, 0x5a, 0x7e, 0xec, 0xbd,
  0xcc, 0xc2, 0x99, 0xbe, 0x7d, 0x0c, 0x78, 0xbd, 0x2f, 0xb8, 0x49, 0x3e,
  0x71, 0x95, 0x02, 0xbe, 0x4f, 0x7a, 0x1c, 0xbe, 0x0a, 0x08, 0x19, 0x3e,
  0x46, 0x6e, 0x31, 0xbe, 0xc0, 0xa3, 0x1a, 0x3e, 0xf4, 0xe3, 0x8c, 0x3d,
  0xd9, 0xcd, 0xce, 0xbe, 0xe8, 0x05, 0x74, 0x3e, 0x52, 0xa9, 0x1c, 0x3d,
  0xfa, 0xd8, 0xeb, 0xbe, 0x42, 0xcc, 0xb2, 0x3d, 0x3b, 0x9e, 0x00, 0xbe,
  0x4b, 0xe1, 0xd1, 0xbe, 0x12, 0x70, 0x03, 0xbe, 0x95, 0xb6, 0x6f, 0x3d,
  0xbc, 0xee, 0x64, 0xbe, 0x08, 0x71, 0x03, 0x3d, 0xc2, 0xbc, 0xed, 0xbc,
  0x3d, 0x85, 0xd0, 0xbe, 0x6f, 0xfd, 0x8a, 0x3d, 0xe1, 0x02, 0x2d, 0x3e,
  0xc6, 0xa2, 0x7c, 0xbe, 0xb1, 0x28, 0xb3, 0x3d, 0xf3, 0x40, 0x3e, 0x3c,
  0xad, 0x3f, 0xd9, 0xbe, 0x8d, 0xc8, 0xda, 0x3d, 0x99, 0x6d, 0xc1, 0x3d,
  0xfe, 0x11, 0x63, 0x3c, 0x48, 0x99, 0x99, 0xbd, 0x6d, 0xb5, 0x4d, 0x3d,
  0xc2, 0xfd, 0xda, 0xbd, 0x98, 0xbe, 0x1d, 0x3e, 0x54, 0x2c, 0x1f, 0x3d,
  0x95, 0x99, 0xa1, 0x3d, 0x70, 0x57, 0x7e, 0xbc, 0xd3, 0xf7, 0x12, 0x3e,
  0x53, 0xa5, 0x87, 0xbe, 0xa8, 0xca, 0x1a, 0x3e, 0xae, 0xa5, 0x32, 0x3e,
  0x27, 0x8b, 0xe9, 0xbd, 0x55, 0x20, 0x8c, 0x3e, 0x7c, 0x94, 0x6f, 0x3e,
  0x6a, 0x79, 0x7c, 0xbe, 0x8d, 0x7c, 0x83, 0x3d, 0xa9, 0x5e, 0x82, 0x3e,
  0xce, 0x03, 0xd0, 0x3b, 0xc5, 0x90, 0x19, 0x3c, 0x5e, 0xde, 0xf8, 0x3d,
  0x72, 0xe3, 0xd9, 0x3c, 0x96, 0x6c, 0x2b, 0xbd, 0xd9, 0x05, 0xf3, 0xbd,
  0x57, 0x68, 0xeb, 0x3d, 0xf2, 0x01, 0x3f, 0x3e, 0xda, 0xb4, 0x4c, 0x3e,
  0x51, 0x7b, 0x3c, 0x3e, 0xf7, 0x5f, 0xc5, 0xbb, 0x85, 0x99, 0xf5, 0xbd,
  0x1c, 0xff, 0x34, 0xbd, 0xf7, 0xd2, 0x64, 0xbd, 0x62, 0x61, 0x4f, 0x3e,
  0x9f, 0x4b, 0xcd, 0x3d, 0x4c, 0xc2, 0x15, 0x3e, 0xe1, 0xda, 0x44, 0x3e,
  0x0b, 0xd0, 0x6f, 0x3d, 0xb7, 0x41, 0x4d, 0x3e, 0x48, 0xe3, 0xbb, 0xbd,
  0x79, 0x39, 0xc4, 0x3d, 0x5c, 0x3f, 0x0d, 0xbe, 0xf0, 0xc3, 0xc2, 0x3d,
  0x0b, 0xc5, 0x82, 0x3e, 0x1d, 0xa0, 0x47, 0x3e, 0x82, 0x7f, 0x52, 0xbc,
  0x76, 0xce, 0xa8, 0x3e, 0x3e, 0x5b, 0x57, 0x3e, 0x35, 0x6d, 0x03, 0xbe,
  0x63, 0x16, 0x24, 0x3e, 0xf6, 0x9b, 0x79, 0x3d, 0x69, 0x21, 0x0a, 0xbd,
  0x58, 0x42, 0x02, 0x3b, 0x54, 0xe4, 0x4e, 0x3e, 0x01, 0x3c, 0x8b, 0x3e,
  0xab, 0x44, 0x8b, 0x3e, 0xc8, 0xd6, 0xe5, 0xbd, 0x3d, 0xab, 0x81, 0x3d,
  0x1c, 0x0e, 0x6b, 0x3b, 0x3e, 0x13, 0xd4, 0xbd, 0x55, 0x5f, 0x1a, 0x3e,
  0x32, 0x3c, 0xa6, 0xbd, 0xa9, 0xc7, 0xf0, 0xbd, 0xc9, 0xe7, 0xc8, 0x3d,
  0xaf, 0x70, 0x24, 0x3e, 0xff, 0x29, 0x10, 0xbd, 0x4d, 0x67, 0x1b, 0x3d,
  0xce, 0xe8, 0x6d, 0x3e, 0x89, 0x95, 0x92, 0x3e, 0xd9, 0x6e, 0xba, 0xbd,
  0x89, 0xd6, 0x24, 0x3e, 0x62, 0xde, 0x02, 0xbc, 0x74, 0x2b, 0xf0, 0xbd,
  0x17, 0x98, 0x19, 0x3e, 0x15, 0x0f, 0x59, 0x3d, 0x1b, 0xeb, 0x87, 0xbd,
  0xc2, 0x54, 0x9c, 0xbd, 0x54, 0xf1, 0xcc, 0xbc, 0x31, 0x11, 0x93, 0x3e,
  0xcf, 0x07, 0x86, 0x3c, 0xfb, 0x21, 0x47, 0xbe, 0x92, 0x0e, 0x67, 0x3d,
  0xa7, 0x75, 0xe5, 0x3d, 0x84, 0xf9, 0x9f, 0x3d, 0x6f, 0xbf, 0x3c, 0x3e,
  0x6f, 0x1a, 0x05, 0x3e, 0x84, 0x19, 0x82, 0x3e, 0xee, 0x6b, 0x32, 0xbd,
  0xf7, 0x62, 0x5a, 0xbe, 0x3b, 0xaa, 0x3f, 0x3d, 0x5a, 0x27, 0xfb, 0xbd,
  0xc6, 0x55, 0x0d, 0x3e, 0x84, 0x68, 0xdb, 0x3b, 0x08, 0xcf, 0x2a, 0x3e,
  0x5e, 0x92, 0xa6, 0x3c, 0x8a, 0x7b, 0x4b, 0x3d, 0x65, 0x48, 0x09, 0xbe,
  0xee, 0x52, 0x92, 0x3e, 0x53, 0xb9, 0x0e, 0xbe, 0x3c, 0xb6, 0x7d, 0xbd,
  0x9b, 0x4f, 0x91, 0x3e, 0x89, 0xfd, 0x49, 0xbe, 0xbc, 0x5e, 0x66, 0x3e,
  0x05, 0x1c, 0xb9, 0x3d, 0xd2, 0xd7, 0x31, 0xbd, 0x90, 0x50, 0x12, 0xbe,
  0xe3, 0x31, 0xa3, 0x3e, 0x76, 0x60, 0x0a, 0x3d, 0x54, 0x96, 0x8d, 0x3d,
  0x39, 0x3a, 0x96, 0x3c, 0x9e, 0x5f, 0x5c, 0xbd, 0x72, 0x68, 0xe9, 0x3c,
  0xdf, 0x93, 0xc0, 0x3e, 0x4a, 0x7a, 0x58, 0x3e, 0x6f, 0x4a, 0x0a, 0xbe,
  0x16, 0x02, 0x69, 0x3e, 0x31, 0xb3, 0xc6, 0x3d, 0x87, 0x82, 0x2c, 0x3d,
  0xe8, 0xc7, 0xe2, 0x3c, 0x6b, 0xb4, 0xff, 0x3d, 0xf3, 0x8d, 0xe0, 0xbd,
  0x43, 0xb7, 0xd0, 0xbb, 0x1d, 0x0b, 0x45, 0xbe, 0xef, 0x33, 0xe2, 0x3d,
  0x67, 0xa6, 0x05, 0x3e, 0x90, 0x34, 0x39, 0xbe, 0x2f, 0xc0, 0xcf, 0x3d,
  0xea, 0xbf, 0x38, 0xbd, 0x7b, 0x05, 0xbb, 0x3d, 0x42, 0xcf, 0x46, 0xbe,
  0x7e, 0x2b, 0x8c, 0x3d, 0x33, 0x9c, 0x5a, 0x3c, 0x6f, 0xf4, 0x44, 0xbe,
  0x2b, 0xc6, 0x8b, 0x3e, 0x06, 0x1d, 0x83, 0x3c, 0xa0, 0xe2, 0xbb, 0xbd,
  0x7f, 0x01, 0x06, 0x3e, 0x5a, 0x6a, 0x6b, 0x3c, 0x33, 0x15, 0xf2, 0xbd,
  0xd9, 0xa8, 0x3c, 0xbd, 0x27, 0xe0, 0x24, 0xbc, 0xc3, 0x6e, 0x4e, 0x3e,
  0x17, 0x63, 0x82, 0x3d, 0x87, 0x1a, 0xa4, 0xbd, 0xc8, 0x79, 0x29, 0xbe,
  0x29, 0xa0, 0x32, 0xbe, 0xb2, 0xa6, 0xc3, 0xbd, 0xdf, 0x3e, 0x48, 0x3d,
  0xe1, 0xbc, 0xb6, 0x3d, 0x18, 0x6b, 0xba, 0x3c, 0x94, 0x7f, 0x75, 0x3b,
  0xc7, 0x8e, 0x08, 0x3e, 0x8a, 0xcc, 0x6d, 0x3e, 0x47, 0x15, 0x3c, 0xbe,
  0x3d, 0xb5, 0x30, 0xbe, 0x5a, 0x7a, 0x48, 0x3e, 0xc5, 0x6e, 0x43, 0x3e,
  0xba, 0x69, 0x36, 0xbe, 0xed, 0x42, 0x18, 0x3e, 0xab, 0x41, 0x5c, 0x3e,
  0x5a, 0xfe, 0x8d, 0xbd, 0x93, 0x73, 0x94, 0xbd, 0x27, 0x9e, 0x20, 0x3e,
  0xea, 0xba, 0xcd, 0x3d, 0x5c, 0xc7, 0x09, 0x3d, 0x50, 0x6e, 0x06, 0x3d,
  0x68, 0xc5, 0xbc, 0xbc, 0x79, 0x0b, 0xd1, 0x3d, 0xc5, 0x05, 0x10, 0x3e,
  0x9a, 0x9d, 0xdb, 0x3d, 0xb0, 0x67, 0x83, 0x3d, 0x3e, 0x30, 0x52, 0x3e,
  0xc8, 0xb9, 0x21, 0xbe, 0xb9, 0x03, 0x3f, 0xbd, 0x3f, 0x1d, 0x10, 0xbe,
  0xfe, 0x80, 0x4f, 0xbd, 0x51, 0x7a, 0xcb, 0xbc, 0x2d, 0x35, 0x0f, 0x3e,
  0x9b, 0x57, 0x19, 0xbd, 0x73, 0xc2, 0xa7, 0xbd, 0x1e, 0x90, 0x39, 0x3e,
  0x76, 0x8f, 0x46, 0xbe, 0x82, 0x0a, 0x23, 0xbe, 0x8f, 0xd0, 0x36, 0x3e,
  0xdf, 0x8b, 0x6e, 0xbe, 0x12, 0xae, 0xcd, 0x3d, 0x24, 0x40, 0xb5, 0xbd,
  0xbb, 0xf7, 0x3d, 0x3e, 0xa0, 0x7d, 0x5b, 0x3b, 0xcc, 0xd3, 0x42, 0x3e,
  0x82, 0x72, 0xbf, 0xbd, 0x27, 0x4f, 0x08, 0x3d, 0xe7, 0x80, 0x1e, 0xbd,
  0x8e, 0x09, 0x27, 0x3e, 0xdb, 0x3a, 0x05, 0xbe, 0x44, 0x7c, 0x34, 0xbd,
  0xfa, 0xd0, 0xf8, 0x3d, 0x57, 0x01, 0xc9, 0xbd, 0x7b, 0x57, 0x4a, 0x3e,
  0x65, 0xd6, 0x46, 0xbe, 0x42, 0x4d, 0x18, 0xbe, 0x3c, 0xa5, 0x98, 0xbd,
  0xd3, 0xd5, 0x24, 0x3e, 0x53, 0x10, 0x36, 0xbe, 0x89, 0x98, 0x1a, 0x3e,
  0x9e, 0xe7, 0x8a, 0xbd, 0x89, 0x50, 0x44, 0x3e, 0x60, 0x6b, 0xdf, 0xbb,
  0xc7, 0xf4, 0x51, 0x3e, 0x00, 0x76, 0x70, 0xbc, 0x40, 0xa9, 0xc9, 0x3c,
  0x48, 0x70, 0xcb, 0xbc, 0xa9, 0xb3, 0xda, 0xbd, 0x18, 0x5c, 0x1b, 0xbd,
  0x40, 0x5d, 0xe6, 0x3c, 0xf9, 0xe3, 0x10, 0x3e, 0x06, 0x52, 0x0a, 0xbe,
  0x80, 0xc8, 0x00, 0xbc, 0x80, 0xba, 0xc0, 0x3b, 0xdf, 0xf3, 0xc2, 0xbd,
  0x90, 0xb9, 0x76, 0xbc, 0xcc, 0xf1, 0x34, 0xbd, 0xfe, 0x4f, 0xab, 0x3d,
  0x40, 0x52, 0xbb, 0xbd, 0x24, 0x7e, 0x53, 0xbe, 0x80, 0x9f, 0xdd, 0xbd,
  0xce, 0xe0, 0xb2, 0x3d, 0x16, 0x2d, 0xf0, 0xbd, 0xa7, 0xb5, 0x23, 0xbe,
  0x48, 0xc4, 0xac, 0x3c, 0x3a, 0xa6, 0x44, 0xbe, 0xc6, 0x31, 0x57, 0xbe,
  0x8a, 0x87, 0xdb, 0x3d, 0x41, 0x6b, 0x03, 0x3e, 0xd9, 0x50, 0x32, 0xbe,
  0xf4, 0x96, 0x99, 0xbd, 0xb3, 0xab, 0x47, 0xbe, 0xa4, 0xd6, 0xed, 0xbd,
  0x96, 0xfe, 0x01, 0xbe, 0x00, 0x93, 0xb0, 0x3c, 0x5f, 0xf4, 0x1c, 0x3e,
  0x2d, 0xa5, 0x4e, 0xbe, 0x0b, 0x6a, 0x5b, 0x3e, 0x87, 0x4f, 0xd1, 0xbd,
  0x58, 0x7b, 0x92, 0x3c, 0x86, 0xdc, 0xfd, 0x3d, 0x15, 0x8e, 0x5b, 0xbe,
  0xe9, 0x0d, 0x11, 0xbe, 0xb5, 0x85, 0x3d, 0x3e, 0xc0, 0xa5, 0xaf, 0x3b,
  0x10, 0x34, 0x45, 0xbd, 0x00, 0x09, 0xd1, 0x3c, 0x5c, 0xb5, 0x5e, 0x3d,
  0x76, 0x40, 0x85, 0xbd, 0x60, 0x7e, 0x2c, 0xbc, 0xe4, 0x7b, 0x83, 0xbd,
  0x72, 0x1c, 0x35, 0xbe, 0x36, 0xb8, 0x92, 0xbd, 0x4e, 0x4d, 0x9f, 0x3d,
  0xf8, 0x80, 0x6a, 0xbd, 0xea, 0x7f, 0xb1, 0x3d, 0xd4, 0xf8, 0x0a, 0xbe,
  0xff, 0xb7, 0x46, 0x3e, 0x35, 0x4b, 0x3f, 0xbe, 0x6e, 0x73, 0xe8, 0x3d,
  0x26, 0xe9, 0xd8, 0x3d, 0x18, 0x67, 0xfd, 0xbc, 0x30, 0x0f, 0x76, 0xbc,
  0x25, 0x88, 0x2f, 0x3e, 0xac, 0x71, 0x70, 0xbd, 0xba, 0xd2, 0x2b, 0xbe,
  0x02, 0x40, 0x87, 0x3d, 0x00, 0xc4, 0xfe, 0x3c, 0x7b, 0xa1, 0x53, 0x3e,
  0xda, 0xd0, 0xd9, 0x3d, 0xa0, 0xa3, 0xc7, 0xbc, 0xde, 0x78, 0x8a, 0x3d,
  0xe2, 0x31, 0x19, 0xbe, 0x2d, 0x75, 0x56, 0x3e, 0xc3, 0xa2, 0x35, 0x3e,
  0x91, 0x5d, 0x08, 0xbe, 0x2b, 0xc9, 0x32, 0x3e, 0x70, 0x9a, 0x14, 0xbc,
  0x0a, 0xf2, 0xcb, 0x3d, 0xe5, 0x36, 0x59, 0xbe, 0x7a, 0x7d, 0xde, 0xbd,
  0xa4, 0x4d, 0x19, 0xbe, 0xba, 0x3f, 0xe7, 0x3d, 0x3e, 0x2e, 0xbd, 0xbd,
  0xa6, 0x5a, 0x9f, 0xbd, 0xd0, 0x80, 0x69, 0xbc, 0xd8, 0xa2, 0x0b, 0xbd,
  0x1a, 0x1d, 0x94, 0xbd, 0x1d, 0xd6, 0x2e, 0x3e, 0x06, 0x35, 0xc4, 0xbd,
  0x5a, 0x01, 0x93, 0x3d, 0x9e, 0xb1, 0xa5, 0xbd, 0x88, 0xdc, 0x0b, 0x3d,
  0xc4, 0xab, 0x59, 0xbe, 0x50, 0xff, 0x0b, 0x3c, 0x2e, 0xaa, 0xc0, 0x3d,
  0xa7, 0xc5, 0x40, 0xbe, 0x76, 0x05, 0xb9, 0x3d, 0xdc, 0xb5, 0x3f, 0xbe,
  0x40, 0xcb, 0x35, 0x3b, 0xd9, 0x18, 0x08, 0xbe, 0x47, 0x0f, 0x38, 0x3e,
  0x37, 0x7a, 0x24, 0x3e, 0x00, 0xbd, 0xd7, 0xbd, 0x5c, 0xcf, 0x4a, 0x3d,
  0xc5, 0x09, 0x0e, 0x3e, 0x40, 0x62, 0xcd, 0xbc, 0x04, 0x97, 0x46, 0x3d,
  0x64, 0xf2, 0x57, 0x3d, 0x02, 0xb7, 0xd3, 0x3d, 0x38, 0x93, 0xa7, 0xbd,
  0xee, 0x30, 0xa5, 0x3d, 0x54, 0xce, 0xdd, 0x3d, 0x27, 0xd9, 0x86, 0x3e,
  0x06, 0xf7, 0xc9, 0x3d, 0x6c, 0xd6, 0x22, 0x3d, 0xf8, 0xf7, 0x39, 0x3e,
  0x39, 0x1f, 0xc9, 0xbd, 0x61, 0x3a, 0xa9, 0x3d, 0x16, 0xac, 0x98, 0xbd,
  0x09, 0x29, 0x03, 0xbe, 0x63, 0xfe, 0xa7, 0x3e, 0xeb, 0xa0, 0xe2, 0x3d,
  0x7d, 0x6e, 0xa9, 0xbd, 0x68, 0xf4, 0xcb, 0x3e, 0x8c, 0xbc, 0xef, 0xbc,
  0xe9, 0xe7, 0x51, 0x3e, 0x60, 0x88, 0x18, 0x3e, 0xb9, 0x0f, 0x28, 0xbe,
  0x4c, 0x2c, 0xbb, 0x3e, 0x42, 0x41, 0xf1, 0xbd, 0xba, 0x73, 0xb4, 0x3c,
  0xaf, 0x26, 0x4d, 0x3e, 0xc1, 0x5a, 0xee, 0x3d, 0x31, 0x26, 0x5c, 0xbd,
  0xb1, 0xf8, 0x95, 0x3e, 0x6c, 0xa5, 0x9e, 0xbd, 0x54, 0x56, 0x46, 0x3e,
  0x50, 0x43, 0x37, 0x3e, 0x69, 0xa9, 0x93, 0x3d, 0x6c, 0xea, 0x0d, 0xbe,
  0xda, 0x24, 0xab, 0x3e, 0x5f, 0x76, 0x32, 0xbe, 0xb2, 0xb2, 0x07, 0x3d,
  0x0d, 0x96, 0xb6, 0x3e, 0xfe, 0x19, 0x5f, 0xbd, 0xea, 0x9c, 0x56, 0x3d,
  0x33, 0x77, 0xc4, 0x3e, 0x68, 0x0d, 0x28, 0x3e, 0x14, 0x57, 0x71, 0xbc,
  0xf3, 0xb2, 0x86, 0x3d, 0x0b, 0xc6, 0x8a, 0xbd, 0x2c, 0xfa, 0x0a, 0x3e,
  0x2b, 0x41, 0x82, 0x3e, 0xcc, 0x16, 0x3c, 0x3e, 0xd6, 0x06, 0x3e, 0x3e,
  0xbf, 0xe1, 0x63, 0x3e, 0x31, 0xbc, 0x02, 0x3e, 0x2e, 0x9e, 0xf8, 0x3d,
  0x8a, 0x16, 0xfb, 0xbc, 0x5c, 0x59, 0x97, 0xbd, 0xde, 0x4c, 0x3c, 0xbd,
  0xdd, 0x5c, 0xbf, 0xba, 0x63, 0x3b, 0xd2, 0xbd, 0x30, 0x4e, 0xb3, 0x3d,
  0xbc, 0x69, 0xb6, 0x3b, 0xf4, 0x8c, 0x4a, 0xbd, 0xb7, 0x24, 0xe8, 0xbb,
  0x35, 0x82, 0x8c, 0x3e, 0xda, 0xac, 0x42, 0x3d, 0x15, 0xe9, 0x2e, 0xbe,
  0xcd, 0xc2, 0x7d, 0x3e, 0xd7, 0x95, 0xd1, 0x3d, 0x6e, 0x8c, 0x91, 0xbd,
  0x40, 0xad, 0x48, 0x3e, 0xc7, 0x23, 0xad, 0xbd, 0x3c, 0xdc, 0x1a, 0x3e,
  0x9a, 0xb7, 0xa8, 0xbd, 0xee, 0xa6, 0x4c, 0x3e, 0x62, 0x17, 0x16, 0x3d,
  0x64, 0xe5, 0x84, 0xbd, 0x00, 0xaa, 0x17, 0x3e, 0x0e, 0xc2, 0x28, 0xbe,
  0xa7, 0xbc, 0xf3, 0xbd, 0x42, 0x21, 0x85, 0x3d, 0x35, 0xf3, 0x18, 0x3e,
  0x03, 0xb0, 0x03, 0xbe, 0x5f, 0xb7, 0x26, 0xbe, 0xfa, 0x0b, 0xda, 0xbd,
  0xb8, 0x1a, 0x82, 0xbd, 0x9d, 0x7d, 0x0d, 0x3b, 0x1d, 0x7b, 0x82, 0x3d,
  0x98, 0xac, 0x21, 0xbe, 0x32, 0x8c, 0xda, 0xbc, 0x1c, 0xec, 0xc2, 0x3c,
  0xb6, 0xe1, 0x00, 0xbe, 0xa5, 0xcb, 0xb3, 0x3d, 0x86, 0xed, 0x1c, 0x3e,
  0x4f, 0x8f, 0x56, 0xbc, 0x05, 0x02, 0x3a, 0x3e, 0x90, 0x42, 0x89, 0x3d,
  0x9b, 0x3c, 0xcd, 0x3b, 0xe6, 0x44, 0x8a, 0xbd, 0x41, 0xfa, 0xc7, 0x3d,
  0x86, 0xc8, 0xc6, 0xbd, 0xa1, 0x0e, 0x3a, 0x3e, 0xf9, 0x05, 0x00, 0x3e,
  0xf4, 0x71, 0x2a, 0xbd, 0x2a, 0x8a, 0x8a, 0xbd, 0x86, 0x9c, 0x28, 0xbe,
  0x20, 0xb6, 0x87, 0xbd, 0xca, 0xff, 0x0c, 0x3e, 0xae, 0xd3, 0x7c, 0xbb,
  0xdf, 0xf1, 0xa1, 0xbd, 0xfd, 0xb8, 0xbd, 0x3d, 0x76, 0xbe, 0x24, 0xbe,
  0x28, 0x96, 0x28, 0x3e, 0x54, 0x7d, 0xe0, 0xbd, 0x39, 0x5d, 0x17, 0xbe,
  0xc5, 0x97, 0x2c, 0xbe, 0x93, 0x14, 0xb6, 0xbd, 0x26, 0xe9, 0x45, 0x3e,
  0xca, 0xb5, 0xcd, 0xbc, 0x40, 0x33, 0x2b, 0xbd, 0x91, 0x0f, 0x07, 0x3e,
  0xf9, 0xe2, 0x29, 0xbd, 0x8d, 0xa7, 0x80, 0x3d, 0xc0, 0xc8, 0x02, 0x3e,
  0x94, 0x26, 0x8e, 0x3d, 0x6f, 0xd6, 0x96, 0x3d, 0xbd, 0x52, 0x06, 0xbe,
  0xf2, 0x69, 0xb0, 0x3d, 0x40, 0xe4, 0x0d, 0x3b, 0x9a, 0x3d, 0xe2, 0xbd,
  0x1c, 0x7c, 0x1d, 0x3d, 0x4a, 0xe5, 0x16, 0xbe, 0xe4, 0xde, 0x02, 0x3d,
  0xc8, 0x80, 0x87, 0xbc, 0x75, 0x3f, 0x25, 0x3e, 0x3d, 0xad, 0x12, 0xbe,
  0xfc, 0xb2, 0x7d, 0x3d, 0xca, 0x50, 0xff, 0x3d, 0xd4, 0x91, 0x9c, 0xbd,
  0x04, 0x91, 0x48, 0x3d, 0x2a, 0xf7, 0x80, 0x3d, 0x3e, 0xf0, 0x2c, 0xbe,
  0xec, 0x09, 0xb7, 0xbd, 0x5a, 0xf6, 0xad, 0x3d, 0x8c, 0x36, 0xf4, 0xbd,
  0xcb, 0x8a, 0x30, 0x3e, 0xc4, 0xe2, 0xdb, 0xbd, 0x8e, 0x13, 0x9d, 0x3d,
  0x47, 0x50, 0x56, 0x3e, 0x62, 0x87, 0xac, 0x3d, 0xde, 0x62, 0x89, 0x3d,
  0xe6, 0xcc, 0x0c, 0xbe, 0x2d, 0xfb, 0xf4, 0xbd, 0x62, 0x8a, 0x8d, 0x3d,
  0x6a, 0x7d, 0xb4, 0x3d, 0xdc, 0x8e, 0x3c, 0xbe, 0xe5, 0x9e, 0x44, 0x3e,
  0x20, 0x8f, 0x3e, 0x3c, 0x40, 0xd1, 0xef, 0x3b, 0x3f, 0xcc, 0xf9, 0xbd,
  0x03, 0x95, 0x23, 0x3e, 0x61, 0xe8, 0xe7, 0xbd, 0xe0, 0x6c, 0x75, 0xbd,
  0xa0, 0xea, 0x86, 0x3c, 0x8c, 0x00, 0x29, 0xbe, 0xa9, 0xcc, 0xf3, 0xbd,
  0x40, 0x61, 0x8a, 0xbc, 0x49, 0x64, 0x18, 0x3e, 0x44, 0xb5, 0xfc, 0xbd,
  0x86, 0xc3, 0xa4, 0xbd, 0xaa, 0x0f, 0xc2, 0xbd, 0x65, 0xa6, 0x54, 0x3e,
  0x6a, 0x39, 0xe5, 0x3d, 0x68, 0xc1, 0xe4, 0xbc, 0x35, 0xed, 0x51, 0x3e,
  0x60, 0xe1, 0x97, 0xbc, 0xf9, 0xb8, 0x57, 0xbe, 0x72, 0xaa, 0x97, 0xbd,
  0xce, 0x65, 0x81, 0x3d, 0xc2, 0xd5, 0x3c, 0xbe, 0x5e, 0x30, 0xbd, 0x3d,
  0xce, 0xbf, 0xa0, 0x3d, 0x00, 0x8c, 0x86, 0x3a, 0xd0, 0x95, 0x14, 0xbe,
  0x5c, 0x33, 0xf8, 0xbd, 0xae, 0x5c, 0x13, 0xbe, 0x77, 0xd4, 0xba, 0xbd,
  0xb8, 0xaf, 0x9e, 0xbd, 0xbe, 0x6c, 0xf5, 0xbd, 0x3c, 0xce, 0xa0, 0xbd,
  0xc0, 0x72, 0x8c, 0x3b, 0x9d, 0x02, 0x56, 0x3e, 0xd7, 0x09, 0x04, 0x3e,
  0x86, 0x72, 0xb9, 0x3d, 0xc5, 0x74, 0x23, 0x3e, 0x16, 0x42, 0xfd, 0x3d,
  0x84, 0x79, 0x06, 0xbe, 0x41, 0x04, 0x1e, 0x3e, 0x06, 0x0d, 0x56, 0xbe,
  0x00, 0x5f, 0xe0, 0xbc, 0xc8, 0x14, 0xed, 0x3c, 0x00, 0xfc, 0xd2, 0x3b,
  0x70, 0xf3, 0x59, 0xbe, 0xe8, 0x47, 0x13, 0xbe, 0x3e, 0x2c, 0x91, 0x3d,
  0xfa, 0x10, 0xd9, 0x3d, 0x30, 0xd7, 0x27, 0xbe, 0xe2, 0x8e, 0x33, 0xbe,
  0x62, 0x5a, 0x91, 0x3d, 0x4d, 0xc5, 0x59, 0x3e, 0xb4, 0x96, 0xae, 0xbd,
  0x10, 0xe2, 0x70, 0x3c, 0xeb, 0xa1, 0x36, 0x3e, 0x53, 0x8d, 0xb9, 0xbd,
  0x34, 0x00, 0x78, 0xbd, 0x3a, 0x54, 0x91, 0xbd, 0xe8, 0xe5, 0x05, 0x3d,
  0x8c, 0x27, 0x43, 0xbd, 0xaa, 0x24, 0xda, 0x3d, 0xca, 0x8d, 0x57, 0xbe,
  0x92, 0xa4, 0xdd, 0x3d, 0xdc, 0xcd, 0x1b, 0x3d, 0xac, 0x32, 0xd6, 0xbd,
  0x00, 0xd8, 0xac, 0x38, 0x8c, 0xc7, 0xaf, 0xbd, 0x4e, 0x2b, 0x85, 0xbd,
  0x50, 0xc1, 0xbc, 0x3c, 0x9d, 0x77, 0x5a, 0xbe, 0x2b, 0x82, 0x4d, 0xbe,
  0xe0, 0x6b, 0x0f, 0x3c, 0x2b, 0xac, 0x5a, 0xbe, 0xc8, 0x1c, 0xf3, 0x3c,
  0x83, 0xae, 0x1e, 0xbe, 0x2b, 0xfd, 0x44, 0xbe, 0xcb, 0x8d, 0x32, 0x3e,
  0x8d, 0x85, 0x34, 0x3e, 0x8b, 0xe1, 0xc8, 0xbd, 0x35, 0x83, 0xbd, 0xbd,
  0xf6, 0x6c, 0xf3, 0x3d, 0x3f, 0x57, 0xc9, 0xbd, 0x65, 0x87, 0x11, 0x3e,
  0x0b, 0x1e, 0x10, 0x3e, 0x4f, 0xb7, 0x51, 0xbe, 0x96, 0x54, 0xa3, 0xbd,
  0x42, 0xdc, 0xb0, 0xbd, 0xdd, 0x16, 0x55, 0x3e, 0x46, 0xda, 0xf1, 0x3d,
  0xea, 0x9e, 0x48, 0xbe, 0x53, 0x86, 0x88, 0xbc, 0x5e, 0x1b, 0x12, 0xbe,
  0xa9, 0xbb, 0xe4, 0xbd, 0x12, 0x86, 0x52, 0x3e, 0xb0, 0x25, 0x20, 0x3c,
  0x15, 0xc1, 0x9d, 0x3d, 0x74, 0x48, 0x92, 0xbd, 0x25, 0x6d, 0x29, 0xbe,
  0xff, 0x6f, 0xcd, 0xbc, 0x13, 0x01, 0x9e, 0xbd, 0x1c, 0x27, 0x2c, 0x3e,
  0x0e, 0xba, 0x0c, 0xbd, 0x06, 0x37, 0x58, 0xbe, 0xd1, 0xb2, 0x3b, 0x3e,
  0xf5, 0xf4, 0x8c, 0x3d, 0x9f, 0xa6, 0xd3, 0xbc, 0x25, 0x3a, 0xea, 0x3d,
  0xa0, 0xa0, 0xb1, 0x3d, 0xf1, 0xa7, 0xd7, 0xbd, 0x68, 0xdb, 0x31, 0xbe,
  0x9a, 0xc8, 0x43, 0xbe, 0x7e, 0x6f, 0x08, 0xbe, 0x71, 0x27, 0x85, 0x3d,
  0x0e, 0x88, 0x15, 0x3e, 0xf2, 0xf3, 0xc1, 0xbd, 0x7c, 0x71, 0x41, 0xbe,
  0xf3, 0x7b, 0x38, 0x3e, 0xe4, 0x25, 0x4f, 0xbe, 0x3a, 0x8f, 0xa4, 0x3d,
  0xbf, 0x23, 0xb6, 0x3d, 0xae, 0x9e, 0x10, 0xbd, 0xa5, 0x27, 0x54, 0x3e,
  0xf3, 0x67, 0xde, 0x3d, 0x3d, 0x9b, 0x38, 0x3e, 0x09, 0x75, 0x43, 0xbe,
  0x52, 0x21, 0x32, 0xbe, 0x34, 0x09, 0x93, 0x3d, 0x10, 0x29, 0xeb, 0x3c,
  0x1f, 0x16, 0x4f, 0xbe, 0x8c, 0x48, 0x2d, 0xbe, 0x3a, 0x1d, 0x4d, 0x3e,
  0x3e, 0xe1, 0x0a, 0x3d, 0x9f, 0x11, 0x25, 0x3d, 0xb7, 0x0e, 0x1e, 0x3c,
  0xc4, 0xbd, 0xbd, 0x3d, 0x94, 0x10, 0xa5, 0xbc, 0x67, 0x05, 0x8e, 0xbc,
  0xbd, 0xc1, 0x7a, 0x3d, 0x1c, 0x9d, 0xff, 0xbc, 0xbf, 0x43, 0x84, 0x3d,
  0x6d, 0xce, 0xe0, 0x3a, 0x82, 0xa0, 0x4a, 0x3e, 0xde, 0xc4, 0x5d, 0x3d,
  0x62, 0xab, 0x3e, 0x3e, 0xaf, 0x99, 0x25, 0xbe, 0x35, 0xa4, 0x5c, 0xbe,
  0x80, 0x04, 0xf0, 0xbd, 0xa3, 0x7d, 0x33, 0x3e, 0x71, 0x51, 0x8e, 0xbb,
  0xd0, 0x43, 0x15, 0xbe, 0x91, 0x4a, 0x23, 0x3e, 0xf1, 0xd9, 0x3d, 0xbe,
  0xc1, 0xf7, 0x29, 0xbe, 0xd0, 0x04, 0x56, 0xbe, 0x5b, 0x49, 0x94, 0xbd,
  0xeb, 0x80, 0x9f, 0xbc, 0x5a, 0x39, 0x0a, 0xbe, 0x65, 0x4b, 0xc9, 0x3c,
  0xc9, 0x24, 0xc3, 0xbb, 0xde, 0x41, 0x9b, 0xbc, 0x57, 0x53, 0x14, 0xbe,
  0x87, 0xe6, 0xce, 0xbd, 0x57, 0x40, 0xd7, 0xbd, 0x0e, 0x47, 0x16, 0x3d,
  0x14, 0xeb, 0x2e, 0x3e, 0xef, 0x2b, 0x1c, 0x3e, 0x3d, 0x18, 0x0f, 0x3c,
  0x9e, 0xdf, 0x3c, 0x3c, 0x9b, 0xec, 0xfc, 0x3d, 0x01, 0x62, 0x21, 0xbe,
  0x81, 0xf0, 0x11, 0x3d, 0x47, 0xcb, 0xaf, 0x3d, 0xd6, 0xa8, 0xf0, 0x3d,
  0x9c, 0x92, 0x4a, 0x3e, 0x87, 0xce, 0x23, 0xbd, 0xe0, 0xd5, 0x2c, 0x3e,
  0x40, 0xd7, 0x33, 0xbe, 0xd0, 0x08, 0xc7, 0xbd, 0xe1, 0xec, 0x57, 0x3c,
  0x4d, 0xd4, 0x1b, 0x3e, 0x20, 0xeb, 0xcf, 0x3d, 0xce, 0xbe, 0x45, 0x3d,
  0x14, 0x12, 0x2c, 0xbe, 0xf3, 0x9f, 0x2a, 0x3e, 0x2d, 0xa1, 0x0d, 0xbd,
  0xf6, 0x4f, 0x30, 0xbe, 0x42, 0x4e, 0x71, 0x3d, 0x6b, 0xd4, 0x94, 0x3d,
  0x90, 0xc0, 0x80, 0x3c, 0x5e, 0x7c, 0x85, 0xbd, 0x4a, 0x7b, 0x14, 0xbe,
  0x60, 0x39, 0x99, 0x3d, 0x44, 0xbf, 0xc7, 0xbc, 0xe0, 0xf9, 0x42, 0xbe,
  0x0e, 0x9e, 0x18, 0xbd, 0x00, 0xf7, 0x3e, 0xbe, 0x10, 0x58, 0xc9, 0xbd,
  0xe0, 0xfa, 0x54, 0xbc, 0xb7, 0x50, 0x79, 0xbd, 0x0c, 0x96, 0xe8, 0xbd,
  0x79, 0xe4, 0x14, 0xbd, 0xfa, 0x87, 0x02, 0xbe, 0x5d, 0x34, 0x76, 0x3d,
  0xf0, 0x81, 0x80, 0x3d, 0xdb, 0x69, 0x45, 0xbe, 0x08, 0xbb, 0x43, 0x3e,
  0xcf, 0xe1, 0x81, 0x3d, 0x2f, 0x63, 0x06, 0xbe, 0x5c, 0x33, 0x0e, 0x3e,
  0x24, 0x1d, 0x4e, 0xbe, 0x40, 0xfa, 0x07, 0xbd, 0x53, 0x6e, 0x05, 0x3e,
  0x0f, 0xc0, 0x35, 0xbe, 0x5b, 0xa3, 0x0b, 0x3e, 0x07, 0xf3, 0x9d, 0x3e,
  0x09, 0xd3, 0x34, 0x3d, 0x61, 0x0b, 0xe1, 0x3d, 0x53, 0x0b, 0x63, 0x3d,
  0xfd, 0xba, 0x00, 0xbe, 0x51, 0x7e, 0xe9, 0x3d, 0x73, 0x78, 0x54, 0xbc,
  0x51, 0x5a, 0xd4, 0x3d, 0x3b, 0xb6, 0x1c, 0x3e, 0x94, 0xc3, 0x7d, 0xbc,
  0x5c, 0xe8, 0x30, 0x3d, 0xcb, 0xe6, 0xd5, 0xbc, 0x0b, 0xb3, 0xca, 0xbc,
  0x4a, 0xca, 0xda, 0x3e, 0x6d, 0xc3, 0x10, 0x3d, 0xc6, 0x29, 0x0b, 0x3d,
  0x05, 0x61, 0xaa, 0x3d, 0x28, 0x2a, 0x54, 0x3d, 0x5e, 0x8b, 0xfe, 0x3d,
  0x9b, 0x7d, 0x9f, 0x3e, 0x1d, 0x7b, 0x3f, 0xbe, 0x67, 0x71, 0xd2, 0xbd,
  0xaf, 0x1d, 0xc7, 0x3e, 0xa0, 0x34, 0x00, 0x3e, 0xae, 0xd9, 0xd7, 0x3d,
  0x2c, 0x45, 0xe3, 0x3e, 0xe6, 0xa8, 0x0c, 0xbe, 0x14, 0x93, 0x06, 0xbe,
  0x80, 0x2f, 0x88, 0x3e, 0xb4, 0x5b, 0x25, 0x3e, 0x09, 0x8c, 0xa4, 0xbd,
  0xb4, 0x42, 0x83, 0x3e, 0x3e, 0xe3, 0x2f, 0xbd, 0x71, 0x71, 0x44, 0x3d,
  0x33, 0xbe, 0x66, 0x3e, 0x8f, 0xdb, 0x5f, 0x3e, 0x25, 0xd4, 0xfe, 0xbd,
  0xcc, 0x04, 0x3a, 0x3c, 0xb9, 0x82, 0x19, 0x3e, 0x35, 0x18, 0x48, 0xbe,
  0xba, 0x52, 0x9b, 0x3e, 0x3e, 0x91, 0x79, 0xbd, 0x18, 0x4a, 0x35, 0x3e,
  0x18, 0x28, 0xce, 0x3d, 0x65, 0xb5, 0x2b, 0x3e, 0xd8, 0x95, 0x1e, 0x3e,
  0x54, 0x9c, 0x99, 0x3e, 0x57, 0x34, 0x92, 0xbd, 0x8e, 0x59, 0x42, 0xba,
  0x27, 0x2b, 0x2b, 0x3d, 0x72, 0x5e, 0x66, 0xbe, 0x32, 0x75, 0x42, 0xbe,
  0x42, 0x50, 0xb6, 0x3c, 0x3b, 0x0f, 0x68, 0xbd, 0x76, 0x29, 0xc6, 0xbd,
  0x5e, 0x86, 0x1b, 0x3d, 0xce, 0xd5, 0x05, 0xbe, 0xfd, 0x2c, 0x1a, 0xba,
  0x26, 0x29, 0x52, 0xbd, 0x37, 0x4e, 0x0d, 0x3d, 0xbe, 0xbd, 0x07, 0x3e,
  0xfa, 0x46, 0x45, 0x3e, 0x23, 0xfe, 0x5a, 0xbd, 0x59, 0x08, 0x72, 0x3d,
  0xbd, 0x93, 0x56, 0x3d, 0x10, 0xa2, 0x7b, 0x3c, 0x43, 0x99, 0x2e, 0x3e,
  0xcb, 0x2b, 0x5d, 0x3c, 0x80, 0x5a, 0x3b, 0xbe, 0x07, 0x42, 0x45, 0x3d,
  0x32, 0x07, 0xba, 0x3d, 0x73, 0x7f, 0x88, 0x3c, 0x10, 0xd9, 0xde, 0xbd,
  0x99, 0x8f, 0xa1, 0x3c, 0x13, 0x71, 0xff, 0x3d, 0xd2, 0xaa, 0x11, 0x3d,
  0x48, 0x26, 0x7e, 0xbe, 0x25, 0xce, 0x14, 0x3c, 0x98, 0x75, 0xc2, 0x3c,
  0x4a, 0x4f, 0xdc, 0x3d, 0x4a, 0x38, 0xfe, 0x3b, 0x46, 0xcb, 0xc1, 0xbd,
  0xd5, 0x87, 0xc3, 0xbd, 0x68, 0xac, 0x99, 0x3d, 0x59, 0x1b, 0x39, 0x3e,
  0xb1, 0xba, 0xdb, 0xbd, 0x04, 0x86, 0x92, 0x3d, 0x05, 0x9a, 0x44, 0xbd,
  0x4d, 0x06, 0x59, 0xbe, 0xaa, 0xca, 0x53, 0x3d, 0x19, 0x76, 0x71, 0x3d,
  0xc5, 0x53, 0x30, 0xbe, 0xd2, 0xf5, 0x24, 0x3e, 0x9d, 0xa5, 0x98, 0x3d,
  0x8e, 0x50, 0xc4, 0x3c, 0x21, 0x7d, 0x00, 0xbe, 0x20, 0xd8, 0xf4, 0xbc,
  0x01, 0xd8, 0x27, 0x3e, 0xb9, 0xed, 0x4c, 0x3e, 0x93, 0x3e, 0x54, 0x3d,
  0x2d, 0x73, 0x22, 0x3c, 0x3b, 0xa7, 0x4c, 0x3e, 0x34, 0xaa, 0x4a, 0xbe,
  0x10, 0x19, 0xff, 0xbd, 0xa1, 0xf1, 0x00, 0x3e, 0x97, 0x41, 0x03, 0xbd,
  0x52, 0xba, 0x17, 0xbe, 0x62, 0x8d, 0x1b, 0xbe, 0x1c, 0xc9, 0xb5, 0xbd,
  0x32, 0xf2, 0xde, 0xb9, 0x17, 0xb8, 0x09, 0xbe, 0x4f, 0xaa, 0xf8, 0xbd,
  0x5e, 0x2c, 0xc2, 0x3d, 0x92, 0x43, 0x36, 0x3e, 0xa8, 0x18, 0xa2, 0x3d,
  0x0a, 0x71, 0x90, 0x3d, 0x18, 0x08, 0x37, 0xbe, 0x80, 0x7e, 0x72, 0x3b,
  0x33, 0x65, 0x03, 0x3e, 0x4d, 0x86, 0x13, 0x3e, 0x45, 0x02, 0x05, 0x3e,
  0x10, 0x86, 0x0f, 0x3c, 0x6d, 0x29, 0x46, 0x3e, 0x1e, 0x78, 0xcc, 0x3d,
  0x18, 0x56, 0x38, 0xbe, 0x67, 0xb5, 0x51, 0xbe, 0xa0, 0x72, 0x30, 0xbe,
  0x54, 0xc6, 0x83, 0xbd, 0x88, 0xdf, 0x55, 0xbd, 0x9e, 0x50, 0xff, 0x3d,
  0xe7, 0x2b, 0xbb, 0xbd, 0x5f, 0xfb, 0x06, 0x3e, 0x58, 0xf5, 0xb2, 0xbc,
  0x9f, 0xc5, 0x0b, 0x3e, 0x26, 0x4a, 0xd9, 0x3d, 0xde, 0xed, 0xaf, 0xbd,
  0xbd, 0x0e, 0xee, 0xbd, 0x60, 0xeb, 0x8c, 0x3b, 0x42, 0x61, 0xd3, 0xbd,
  0xa9, 0xea, 0x53, 0x3e, 0xa7, 0xe9, 0x28, 0x3e, 0x85, 0x2e, 0x42, 0x3e,
  0xc0, 0xbe, 0x7a, 0x3b, 0xc2, 0x6c, 0x30, 0xbe, 0xc8, 0xbb, 0x5d, 0xbd,
  0xa1, 0xd5, 0x2c, 0x3e, 0xe3, 0x25, 0xbc, 0xbd, 0x9e, 0xbf, 0x56, 0xbe,
  0x3e, 0xc8, 0x00, 0xbe, 0xda, 0x36, 0x46, 0xbe, 0x3e, 0x9f, 0x4f, 0xbe,
  0xee, 0x47, 0x85, 0x3d, 0x4e, 0xfa, 0xd5, 0xbd, 0x02, 0xe2, 0xa9, 0x3d,
  0x54, 0x07, 0x16, 0xbe, 0x34, 0x84, 0x10, 0x3d, 0x3a, 0xee, 0xa2, 0x3d,
  0x5a, 0x99, 0x83, 0x3d, 0x20, 0x49, 0xff, 0x3b, 0x47, 0x96, 0x51, 0xbe,
  0x1a, 0xec, 0x1d, 0xbe, 0xd8, 0xe6, 0x01, 0xbe, 0xb2, 0x7b, 0x3f, 0xbe,
  0xd2, 0xbb, 0x52, 0xbe, 0xc7, 0x8c, 0x3c, 0x3e, 0x9a, 0x1d, 0xea, 0x3d,
  0x7b, 0xde, 0x01, 0xbe, 0x93, 0xdb, 0xc4, 0xbd, 0xc8, 0xce, 0xfe, 0xbd,
  0x7f, 0x3d, 0x4b, 0x3e, 0x40, 0x49, 0x37, 0xbd, 0xbb, 0xe6, 0xca, 0xbd,
  0xca, 0x3f, 0x8e, 0x3d, 0xf8, 0xbd, 0x0b, 0xbd, 0x00, 0xdf, 0xeb, 0x3c,
  0x74, 0xe5, 0x9c, 0xbd, 0x1e, 0xae, 0x2f, 0xbe, 0x85, 0xbf, 0xc8, 0xbd,
  0x12, 0xaa, 0x99, 0x3d, 0x0a, 0xd3, 0xc5, 0x3d, 0xe6, 0xf8, 0x32, 0xbe,
  0x12, 0x94, 0xa3, 0x3d, 0xa0, 0x5b, 0x3f, 0x3c, 0xa1, 0x92, 0x5a, 0xbe,
  0x4a, 0x9f, 0xe0, 0x3d, 0xdb, 0x20, 0x44, 0xbe, 0x40, 0x20, 0x02, 0xbb,
  0x42, 0xd8, 0xf3, 0x3d, 0xb6, 0xa0, 0xba, 0x3d, 0xca, 0x05, 0x25, 0xbe,
  0x94, 0x2c, 0x41, 0xbd, 0xef, 0xe9, 0x22, 0x3e, 0xe2, 0x20, 0x1f, 0xbe,
  0x96, 0x3d, 0xac, 0x3d, 0x6e, 0x3b, 0x80, 0xbd, 0x68, 0xda, 0xea, 0x3c,
  0x91, 0xdc, 0x3f, 0x3e, 0x66, 0xc4, 0xa8, 0x3d, 0x41, 0x08, 0x34, 0x3e,
  0x03, 0xe6, 0x33, 0xbe, 0x99, 0xe1, 0x3c, 0xbe, 0x60, 0xbd, 0xaa, 0x3b,
  0xb4, 0xa0, 0x2f, 0xbe, 0x20, 0x06, 0x82, 0x3c, 0x8c, 0x02, 0xb1, 0xbd,
  0x8b, 0xed, 0x53, 0xbe, 0x4f, 0xb1, 0x08, 0x3e, 0x06, 0x0a, 0x21, 0xbe,
  0x81, 0xf9, 0x31, 0xbe, 0xa3, 0x80, 0x1b, 0x3e, 0x10, 0x77, 0xff, 0x3c,
  0x43, 0xe7, 0x06, 0x3e, 0x41, 0x42, 0x27, 0x3e, 0x5e, 0x3d, 0xa7, 0x3d,
  0xbe, 0x41, 0xb0, 0x3d, 0xaa, 0xca, 0x94, 0x3d, 0xe4, 0x8e, 0xca, 0xbd,
  0x9c, 0xe8, 0x64, 0x3d, 0xdf, 0x1f, 0x48, 0xbe, 0xf0, 0xae, 0x9d, 0xbd,
  0x34, 0x25, 0x51, 0x3d, 0x78, 0x7c, 0x70, 0xbd, 0x16, 0x86, 0x8a, 0x3d,
  0x8d, 0xaa, 0x1d, 0x3e, 0x3e, 0x93, 0x9a, 0x3d, 0x37, 0xf0, 0x51, 0x3e,
  0xee, 0x0f, 0xaa, 0x3d, 0x78, 0x83, 0x27, 0xbe, 0xb8, 0x20, 0xc9, 0xbc,
  0xf1, 0xd4, 0x23, 0x3e, 0x6c, 0x03, 0x60, 0x3d, 0xe6, 0x34, 0xb0, 0xbd,
  0x3b, 0x2e, 0x39, 0x3e, 0x47, 0x05, 0xd2, 0xbd, 0xec, 0x09, 0x78, 0x3d,
  0xc6, 0x7b, 0x16, 0xbe, 0x7d, 0x4b, 0x23, 0xbe, 0x9d, 0x04, 0x86, 0x3e,
  0x2e, 0xf0, 0x4b, 0xbe, 0x41, 0x27, 0x66, 0xbe, 0x54, 0xb2, 0x8b, 0x3e,
  0x4d, 0xe5, 0x17, 0x3a, 0x39, 0x47, 0x4d, 0x3e, 0x3a, 0xcf, 0xee, 0xbd,
  0x9a, 0x4f, 0x92, 0xbd, 0xbb, 0x7e, 0x17, 0x3e, 0xf3, 0x6f, 0xb6, 0x3d,
  0xef, 0x0a, 0x66, 0x3e, 0x88, 0x43, 0xd0, 0x3d, 0x61, 0x8d, 0x19, 0x3e,
  0x26, 0x98, 0x41, 0x3e, 0x50, 0x96, 0xf7, 0xbb, 0x0a, 0x9f, 0xff, 0xbd,
  0x08, 0x55, 0xa5, 0x3e, 0x9e, 0x89, 0x83, 0xbd, 0xa9, 0x6a, 0x11, 0xbe,
  0xf4, 0x7b, 0xbe, 0x3e, 0xf9, 0x13, 0xb2, 0xbd, 0xe8, 0x58, 0xf7, 0xbd,
  0x42, 0xb0, 0xd4, 0x3e, 0xb1, 0x9b, 0x1e, 0xbe, 0xfc, 0xf6, 0x3b, 0x3e,
  0x9e, 0x78, 0xb7, 0x3e, 0x29, 0xdb, 0x0e, 0x3e, 0xdf, 0xfd, 0xe4, 0x3d,
  0x9f, 0x19, 0x01, 0x3f, 0xd1, 0x2d, 0x29, 0x3e, 0xf8, 0xed, 0xf6, 0xbd,
  0xc0, 0x6b, 0xc1, 0x3e, 0xcf, 0xc1, 0xce, 0x3d, 0xff, 0x20, 0xea, 0x3d,
  0xa8, 0xe1, 0x09, 0x3f, 0x9d, 0x32, 0x66, 0x3e, 0x0f, 0x67, 0x56, 0x3e,
  0x89, 0x2a, 0xf9, 0x3e, 0x7c, 0xcd, 0x74, 0x3e, 0x5e, 0x84, 0xeb, 0xbd,
  0x68, 0x66, 0xa8, 0x3e, 0x4c, 0x87, 0x09, 0x3e, 0x07, 0xe0, 0x01, 0xbd,
  0x27, 0x59, 0xc3, 0x3d, 0x3a, 0x92, 0xa7, 0x3c, 0x0f, 0xf7, 0x30, 0x3e,
  0x32, 0x0e, 0x66, 0x3d, 0x1e, 0xea, 0x42, 0x3e, 0xd2, 0x2b, 0x3a, 0x3e,
  0x05, 0x15, 0xc3, 0x3e, 0xd7, 0x78, 0x3e, 0xbc, 0x2a, 0xc8, 0x88, 0x3d,
  0x7e, 0xe3, 0xcc, 0x3e, 0x1d, 0x46, 0x3c, 0x3e, 0xf6, 0xab, 0x73, 0xbd,
  0xb4, 0x88, 0x54, 0x3e, 0x72, 0x30, 0x36, 0x3e, 0xc4, 0xff, 0x86, 0x3d,
  0x7f, 0x8a, 0xc7, 0x3e, 0xf3, 0xab, 0xdf, 0x3c, 0xdd, 0x3d, 0x02, 0x3e,
  0x07, 0xe8, 0x6f, 0x3d, 0xc1, 0xf0, 0x6f, 0x3e, 0xed, 0x97, 0xb2, 0xbc,
  0x3b, 0x7c, 0x07, 0x3c, 0xfe, 0xce, 0x1d, 0x3d, 0x94, 0x46, 0x32, 0xbd,
  0xc3, 0x77, 0xe5, 0x3d, 0x83, 0xfa, 0xa9, 0x3d, 0xe1, 0x70, 0x85, 0xbd,
  0x2c, 0xa9, 0x95, 0xbd, 0xa0, 0x51, 0xdf, 0xbd, 0x71, 0x79, 0xee, 0x3c,
  0xa3, 0x9b, 0x3b, 0x3e, 0x35, 0x2d, 0xb2, 0x3d, 0x85, 0x03, 0xac, 0xbc,
  0x43, 0xee, 0x5f, 0xbe, 0x75, 0x5b, 0x86, 0xbd, 0xd5, 0x75, 0x12, 0x3d,
  0xa7, 0x31, 0x34, 0x3e, 0xc4, 0x23, 0x98, 0xbd, 0x21, 0xba, 0x93, 0x3d,
  0x1d, 0x86, 0x9f, 0xbd, 0xd5, 0x70, 0x18, 0xbe, 0x42, 0x1b, 0x15, 0x3e,
  0xfe, 0x2f, 0x3f, 0xbc, 0xc6, 0xc6, 0x07, 0xbe, 0x6c, 0x58, 0x2b, 0x3e,
  0x9d, 0xe0, 0xaf, 0xbc, 0xc8, 0x77, 0x2e, 0xbe, 0x33, 0x35, 0x73, 0x3e,
  0xb5, 0xb1, 0x9d, 0xbd, 0x75, 0xc4, 0xc8, 0x3d, 0xf4, 0xa3, 0xb6, 0x3d,
  0xc1, 0xf7, 0x63, 0xbe, 0x41, 0x62, 0x9b, 0xbd, 0x92, 0x15, 0xa7, 0x3d,
  0x8f, 0xe3, 0x41, 0x3e, 0x14, 0x2a, 0x0a, 0x3d, 0x7b, 0x09, 0x47, 0x3e,
  0xbb, 0x11, 0x50, 0xbc, 0x52, 0x02, 0xf2, 0x3c, 0x89, 0xc5, 0xb9, 0xbd,
  0xcd, 0x6d, 0x7d, 0xbc, 0x51, 0x8c, 0x00, 0x3e, 0xde, 0xbb, 0xfa, 0xbc,
  0xaf, 0xa6, 0x93, 0xbc, 0xf4, 0x96, 0x6c, 0x3e, 0x25, 0xb9, 0x10, 0xbe,
  0x18, 0xcf, 0x2b, 0xbe, 0x71, 0xee, 0x0c, 0xbe, 0xb2, 0xdf, 0x16, 0xbe,
  0x28, 0xc1, 0xc6, 0x3d, 0xfb, 0xbb, 0xbd, 0xbd, 0x6a, 0x8e, 0x9c, 0xbd,
  0x7c, 0x23, 0x54, 0x3e, 0xd7, 0x76, 0x42, 0xbe, 0x25, 0xd6, 0xfb, 0x3c,
  0xb9, 0x11, 0xbc, 0xbd, 0x1d, 0x02, 0x32, 0x3d, 0xda, 0x72, 0x06, 0xbd,
  0x89, 0xaa, 0xba, 0x3d, 0x29, 0x87, 0xb9, 0x3b, 0x2a, 0xdc, 0x90, 0x3d,
  0x52, 0x74, 0x7d, 0x3e, 0x64, 0xd6, 0xd0, 0x3d, 0x03, 0x94, 0x59, 0x3c,
  0x36, 0x1b, 0x16, 0x3e, 0xdb, 0xf0, 0xcc, 0xbd, 0xbf, 0x51, 0x07, 0xbe,
  0x00, 0x84, 0x62, 0xbb, 0x2d, 0x28, 0x0e, 0x3d, 0xf6, 0xe4, 0x67, 0xbd,
  0xfe, 0x41, 0xf0, 0xbd, 0x05, 0xd5, 0x1c, 0xbe, 0xa0, 0x76, 0xa8, 0xbd,
  0x21, 0x95, 0x79, 0xbe, 0xa3, 0xc0, 0x2b, 0xbe, 0x0f, 0xda, 0x4a, 0xbd,
  0x13, 0x88, 0xe8, 0xbe, 0x75, 0xb2, 0x16, 0x3e, 0x62, 0x23, 0x2f, 0xbe,
  0x4b, 0xb7, 0xbd, 0xbe, 0x8b, 0xe6, 0x8d, 0xbd, 0xb7, 0x83, 0xb9, 0x3d,
  0x8c, 0x88, 0xb6, 0xbe, 0x46, 0x3a, 0x3f, 0x3e, 0x9d, 0x27, 0x0f, 0x3d,
  0x45, 0x0f, 0xeb, 0xbe, 0x52, 0x2c, 0x38, 0xbe, 0x34, 0x81, 0x24, 0x3e,
  0xe7, 0x88, 0x0d, 0xbe, 0xc0, 0xc6, 0xfb, 0x3d, 0xda, 0xbc, 0x55, 0xbd,
  0xb5, 0x7d, 0x94, 0xbe, 0xf8, 0xb5, 0xd9, 0xbd, 0x18, 0x2b, 0x41, 0x3e,
  0x2d, 0xdf, 0x20, 0xbe, 0x2b, 0xb0, 0xd9, 0xbd, 0x4a, 0x23, 0xf4, 0xbc,
  0x34, 0x53, 0x85, 0xbd, 0x6e, 0xba, 0x45, 0x3e, 0x8e, 0x53, 0xab, 0xbd,
  0x35, 0x26, 0x9c, 0xbe, 0x82, 0xaa, 0x0e, 0x3e, 0xd5, 0x61, 0x13, 0xbc,
  0x11, 0x0c, 0xd2, 0xbd, 0xd8, 0x94, 0x7b, 0x3d, 0x51, 0xe4, 0x62, 0x3e,
  0xbb, 0x33, 0x0e, 0xbe, 0x3a, 0x75, 0x24, 0x3d, 0xd8, 0xea, 0x3c, 0x3e,
  0x49, 0x0a, 0xca, 0xbc, 0x6d, 0xcc, 0x00, 0x3e, 0x56, 0x7b, 0x6f, 0x3d,
  0xb0, 0x02, 0x32, 0xbd, 0x2f, 0xc3, 0x6b, 0x3d, 0xca, 0x47, 0x44, 0x3e,
  0x13, 0x10, 0xb7, 0xbd, 0x17, 0x19, 0xfe, 0x3d, 0x0c, 0xfb, 0x3d, 0x3e,
  0x53, 0xeb, 0x1f, 0x3d, 0x21, 0x71, 0x34, 0x3e, 0x05, 0x7a, 0x31, 0x3e,
  0xaa, 0xf1, 0x63, 0xbd, 0x0c, 0xd8, 0xbe, 0x3d, 0x12, 0x50, 0x94, 0xbd,
  0xb6, 0x14, 0x3a, 0xbe, 0xbb, 0xa2, 0xc6, 0x3c, 0xa4, 0x90, 0x36, 0xbd,
  0x92, 0x7e, 0x21, 0xbd, 0xfb, 0xfd, 0x69, 0x3e, 0x4f, 0x5c, 0x5f, 0x3d,
  0x83, 0xd3, 0xbf, 0x3d, 0x8e, 0xc2, 0x2f, 0x3d, 0x7b, 0x76, 0x8d, 0xbc,
  0x28, 0x7a, 0xae, 0xbd, 0x88, 0x38, 0x0c, 0x3e, 0x52, 0xbd, 0xe8, 0xbd,
  0x50, 0xa5, 0xde, 0xbd, 0x77, 0xd1, 0x4a, 0x3e, 0x99, 0x33, 0x36, 0x3e,
  0x3e, 0x7d, 0x41, 0x3e, 0x56, 0xaf, 0x28, 0x3d, 0x2c, 0x9e, 0x05, 0xbe,
  0x33, 0x12, 0xff, 0xbd, 0x8f, 0x7e, 0x1e, 0x3d, 0x2a, 0x1a, 0x9f, 0xbd,
  0x88, 0x13, 0xd9, 0xbd, 0x52, 0x5b, 0x6e, 0x3e, 0x06, 0x1c, 0x43, 0x3e,
  0x5e, 0x45, 0x97, 0x3d, 0x3f, 0xc5, 0x0a, 0xbe, 0xca, 0x26, 0xa5, 0xbd,
  0x19, 0x29, 0x2c, 0x3c, 0x6d, 0x82, 0x84, 0xbd, 0xa9, 0x2b, 0xa2, 0xbd,
  0x83, 0x24, 0x2d, 0x3d, 0x84, 0x6d, 0x40, 0x3d, 0x3b, 0xb8, 0x91, 0xbd,
  0x7e, 0x95, 0xf1, 0x3d, 0x01, 0xab, 0xd0, 0xbd, 0xc5, 0xe2, 0x97, 0x3d,
  0x72, 0x92, 0x30, 0xbd, 0xc3, 0xb5, 0xc9, 0x3c, 0xf2, 0x82, 0x5f, 0x3e,
  0x3f, 0x40, 0x46, 0xbd, 0x9c, 0x4f, 0x8f, 0xbd, 0xad, 0x2e, 0xd7, 0xbd,
  0x81, 0x15, 0x3f, 0x3e, 0xce, 0xde, 0x3a, 0x3e, 0x39, 0x15, 0xb5, 0x3d,
  0x19, 0x24, 0xa6, 0xbd, 0x43, 0xc0, 0x00, 0x3d, 0xe0, 0x7a, 0x0d, 0x3e,
  0x67, 0xae, 0x87, 0xbd, 0xb7, 0x2d, 0xf2, 0xbd, 0xcb, 0xf2, 0xaa, 0xbd,
  0xca, 0xfe, 0xff, 0xff, 0x10, 0x00, 0x00, 0x00, 0x05, 0x00, 0x00, 0x00,
  0x14, 0x00, 0x00, 0x00, 0x30, 0x00, 0x00, 0x00, 0x02, 0x00, 0x00, 0x00,
  0x0a, 0x00, 0x00, 0x00, 0x78, 0x00, 0x00, 0x00, 0x1b, 0x00, 0x00, 0x00,
  0x73, 0x65, 0x71, 0x75, 0x65, 0x6e, 0x74, 0x69, 0x61, 0x6c, 0x5f, 0x31,
  0x2f, 0x64, 0x65, 0x6e, 0x73, 0x65, 0x5f, 0x33, 0x2f, 0x4d, 0x61, 0x74,
  0x4d, 0x75, 0x6c, 0x00, 0x5c, 0xfe, 0xff, 0xff, 0x2a, 0xff, 0xff, 0xff,
  0x04, 0x00, 0x00, 0x00, 0x28, 0x00, 0x00, 0x00, 0xed, 0xe8, 0x78, 0x3d,
  0x90, 0x48, 0xcc, 0x3b, 0x00, 0x00, 0x00, 0x00, 0xcb, 0xfa, 0x69, 0x3c,
  0x00, 0x00, 0x00, 0x00, 0x2d, 0x6f, 0xb3, 0xbb, 0x3d, 0xb6, 0x87, 0x3b,
  0x00, 0x00, 0x00, 0x00, 0xe2, 0xb6, 0x30, 0x3d, 0xc9, 0xd9, 0x98, 0x3c,
  0x42, 0xff, 0xff, 0xff, 0x10, 0x00, 0x00, 0x00, 0x04, 0x00, 0x00, 0x00,
  0x10, 0x00, 0x00, 0x00, 0x20, 0x00, 0x00, 0x00, 0x01, 0x00, 0x00, 0x00,
  0x0a, 0x00, 0x00, 0x00, 0x0c, 0x00, 0x00, 0x00, 0x64, 0x65, 0x6e, 0x73,
  0x65, 0x5f, 0x33, 0x2f, 0x62, 0x69, 0x61, 0x73, 0x00, 0x00, 0x00, 0x00,
  0xc4, 0xfe, 0xff, 0xff, 0x92, 0xff, 0xff, 0xff, 0x04, 0x00, 0x00, 0x00,
  0x28, 0x00, 0x00, 0x00, 0xd1, 0x88, 0x64, 0x3c, 0x46, 0x4a, 0x19, 0x3e,
  0x57, 0x4e, 0xc9, 0xbc, 0xbf, 0x19, 0xd8, 0xbc, 0x31, 0xc6, 0x47, 0x3d,
  0x90, 0xcd, 0xf9, 0xbc, 0x0a, 0xcb, 0x21, 0x3d, 0x02, 0x6d, 0xc3, 0x3b,
  0xac, 0x4a, 0x05, 0x3b, 0x99, 0x6c, 0x0a, 0x3c, 0xaa, 0xff, 0xff, 0xff,
  0x10, 0x00, 0x00, 0x00, 0x03, 0x00, 0x00, 0x00, 0x10, 0x00, 0x00, 0x00,
  0x24, 0x00, 0x00, 0x00, 0x01, 0x00, 0x00, 0x00, 0x0a, 0x00, 0x00, 0x00,
  0x0c, 0x00, 0x00, 0x00, 0x64, 0x65, 0x6e, 0x73, 0x65, 0x5f, 0x34, 0x2f,
  0x62, 0x69, 0x61, 0x73, 0x00, 0x00, 0x00, 0x00, 0x04, 0x00, 0x06, 0x00,
  0x04, 0x00, 0x00, 0x00, 0x00, 0x00, 0x06, 0x00, 0x08, 0x00, 0x04, 0x00,
  0x06, 0x00, 0x00, 0x00, 0x04, 0x00, 0x00, 0x00, 0x08, 0x00, 0x00, 0x00,
  0xd5, 0x8b, 0xf5, 0xbc, 0xd5, 0x8b, 0xf5, 0x3c, 0x00, 0x00, 0x0e, 0x00,
  0x14, 0x00, 0x04, 0x00, 0x00, 0x00, 0x08, 0x00, 0x0c, 0x00, 0x10, 0x00,
  0x0e, 0x00, 0x00, 0x00, 0x10, 0x00, 0x00, 0x00, 0x02, 0x00, 0x00, 0x00,
  0x10, 0x00, 0x00, 0x00, 0x20, 0x00, 0x00, 0x00, 0x01, 0x00, 0x00, 0x00,
  0x02, 0x00, 0x00, 0x00, 0x0c, 0x00, 0x00, 0x00, 0x64, 0x65, 0x6e, 0x73,
  0x65, 0x5f, 0x35, 0x2f, 0x62, 0x69, 0x61, 0x73, 0x00, 0x00, 0x00, 0x00,
  0x90, 0xff, 0xff, 0xff, 0x14, 0x00, 0x18, 0x00, 0x04, 0x00, 0x00, 0x00,
  0x08, 0x00, 0x0c, 0x00, 0x10, 0x00, 0x00, 0x00, 0x00, 0x00, 0x14, 0x00,
  0x14, 0x00, 0x00, 0x00, 0x14, 0x00, 0x00, 0x00, 0x01, 0x00, 0x00, 0x00,
  0x18, 0x00, 0x00, 0x00, 0x44, 0x00, 0x00, 0x00, 0x34, 0x00, 0x00, 0x00,
  0x02, 0x00, 0x00, 0x00, 0x01, 0x00, 0x00, 0x00, 0x78, 0x00, 0x00, 0x00,
  0x1f, 0x00, 0x00, 0x00, 0x73, 0x65, 0x72, 0x76, 0x69, 0x6e, 0x67, 0x5f,
  0x64, 0x65, 0x66, 0x61, 0x75, 0x6c, 0x74, 0x5f, 0x64, 0x65, 0x6e, 0x73,
  0x65, 0x5f, 0x33, 0x5f, 0x69, 0x6e, 0x70, 0x75, 0x74, 0x3a, 0x30, 0x00,
  0x02, 0x00, 0x00, 0x00, 0xff, 0xff, 0xff, 0xff, 0x78, 0x00, 0x00, 0x00,
  0xfc, 0xff, 0xff, 0xff, 0x04, 0x00, 0x04, 0x00, 0x04, 0x00, 0x00, 0x00
};
